DEPTH = 512;
WIDTH = 8;
ADDRESS_RADIX = DEC;
DATA_RADIX = HEX;
CONTENT BEGIN
    0 : 0D;
    1 : E7;
    2 : D8;
    3 : E1;
    4 : D3;
    5 : 23;
    6 : 0C;
    7 : 07;
    8 : FE;
    9 : EF;
   10 : 22;
   11 : 2B;
   12 : 34;
   13 : 1C;
   14 : 06;
   15 : FD;
   16 : 14;
   17 : 1A;
   18 : 31;
   19 : 1E;
   20 : DE;
   21 : D6;
   22 : E0;
   23 : E4;
   24 : FE;
   25 : 18;
   26 : 2E;
   27 : 05;
   28 : C6;
   29 : E9;
   30 : 26;
   31 : 36;
   32 : 01;
   33 : C6;
   34 : CC;
   35 : 18;
   36 : 3A;
   37 : EE;
   38 : E3;
   39 : D7;
   40 : 2B;
   41 : 10;
   42 : 12;
   43 : EB;
   44 : E2;
   45 : 1B;
   46 : 10;
   47 : 14;
   48 : F0;
   49 : F1;
   50 : CD;
   51 : DF;
   52 : 06;
   53 : 0E;
   54 : 34;
   55 : F1;
   56 : F1;
   57 : 04;
   58 : 34;
   59 : 18;
   60 : E7;
   61 : 19;
   62 : 37;
   63 : 38;
   64 : E9;
   65 : 09;
   66 : 14;
   67 : 19;
   68 : EE;
   69 : D8;
   70 : 12;
   71 : F7;
   72 : FB;
   73 : E6;
   74 : E8;
   75 : 1F;
   76 : 30;
   77 : 2C;
   78 : FE;
   79 : 17;
   80 : F1;
   81 : FC;
   82 : 14;
   83 : 11;
   84 : 23;
   85 : EC;
   86 : E7;
   87 : 0D;
   88 : 01;
   89 : 1C;
   90 : 04;
   91 : DF;
   92 : ED;
   93 : F8;
   94 : EA;
   95 : F7;
   96 : 00;
   97 : EE;
   98 : E1;
   99 : EB;
  100 : 36;
  101 : 0E;
  102 : 17;
  103 : 0E;
  104 : F1;
  105 : F4;
  106 : 29;
  107 : 08;
  108 : 09;
  109 : 02;
  110 : 08;
  111 : 2F;
  112 : 24;
  113 : F1;
  114 : 0C;
  115 : 10;
  116 : 29;
  117 : 25;
  118 : 0A;
  119 : 07;
  120 : E7;
  121 : 04;
  122 : 2B;
  123 : 0F;
  124 : 25;
  125 : E8;
  126 : D9;
  127 : ED;
  128 : 1B;
  129 : 30;
  130 : F8;
  131 : 10;
  132 : 25;
  133 : 30;
  134 : 17;
  135 : 28;
  136 : 1B;
  137 : 03;
  138 : F3;
  139 : E0;
  140 : 06;
  141 : F9;
  142 : DB;
  143 : 07;
  144 : 0B;
  145 : 06;
  146 : 04;
  147 : 02;
  148 : 18;
  149 : 1A;
  150 : F5;
  151 : 0E;
  152 : F1;
  153 : F6;
  154 : DF;
  155 : E5;
  156 : E1;
  157 : E5;
  158 : 0B;
  159 : F4;
  160 : E1;
  161 : 00;
  162 : 00;
  163 : 0C;
  164 : EF;
  165 : 02;
  166 : F5;
  167 : F6;
  168 : EC;
  169 : FD;
  170 : 01;
  171 : 11;
  172 : 0D;
  173 : 1C;
  174 : 35;
  175 : 08;
  176 : 13;
  177 : 0E;
  178 : EB;
  179 : 1C;
  180 : E2;
  181 : E6;
  182 : CD;
  183 : D2;
  184 : CF;
  185 : 17;
  186 : E6;
  187 : DF;
  188 : EB;
  189 : E7;
  190 : 23;
  191 : 1A;
  192 : 1A;
  193 : 1D;
  194 : 2E;
  195 : 04;
  196 : 37;
  197 : 47;
  198 : 40;
  199 : 0B;
  [200..511] : 00;
END;
